
const unsigned char RSSIMODEL_model_prms_bin[] __ALIGNED(4) = {
  0x00, 0x02, 0x01, 0x00, 0x18, 0x00, 0x00, 0x00, 0x14, 0x00, 0x00, 0x00, 
  0x04, 0x00, 0x00, 0x00, 0x28, 0x00, 0x00, 0x00, 0x0c, 0x00, 0x00, 0x00, 
  0x04, 0x00, 0x00, 0x00, 0x01, 0x00, 0x00, 0x00, 0x00, 0x00, 0x00, 0x00, 
  0x00, 0x00, 0x00, 0x00, 0xb7, 0x1d, 0xc1, 0x04, 0x24, 0x00, 0x00, 0x00, 
  0x00, 0x00, 0x00, 0x00, 0x02, 0x00, 0x00, 0x00, 0x00, 0x00, 0x00, 0x00, 
  0x00, 0x00, 0x00, 0x00, 0x00, 0x00, 0x00, 0x00, 0x01, 0x00, 0x00, 0x00, 
  0x08, 0x00, 0x00, 0x00, 0x01, 0x00, 0x00, 0x00, 0x05, 0x00, 0x00, 0x00, 
  0x08, 0x00, 0x00, 0x00, 0x05, 0x00, 0x00, 0x00, 0x01, 0x00, 0x00, 0x00, 
  0x6a, 0xd4, 0x9a, 0x90
};
const unsigned int RSSIMODEL_model_prms_bin_len = 100;

#ifdef CY_ML_MODEL_MEM
#define Q(x) #x
#define QUOTE(x) Q(x)
CY_SECTION(QUOTE(CY_ML_MODEL_MEM))
const
#endif

#if COMPONENT_ML_FLOAT32
unsigned char RSSIMODEL_model_flt_bin[] __ALIGNED(4) = {
  0x48, 0x00, 0x00, 0x00, 0x14, 0x00, 0x00, 0x00, 0x69, 0x39, 0x30, 0xbf, 
  0xae, 0x6f, 0x71, 0xbf, 0x50, 0x6f, 0x30, 0x3e, 0x78, 0xb3, 0xf3, 0x3e, 
  0xb9, 0x10, 0x3a, 0xbf, 0x14, 0x00, 0x00, 0x00, 0xb2, 0xc9, 0x95, 0xbb, 
  0x8a, 0xa6, 0x96, 0x3b, 0x00, 0x00, 0x00, 0x00, 0x00, 0x00, 0x00, 0x00, 
  0x3a, 0xdd, 0x95, 0xbb, 0x04, 0x00, 0x00, 0x00, 0x00, 0x00, 0x00, 0x00, 
  0x14, 0x00, 0x00, 0x00, 0x9a, 0x30, 0x2f, 0x3f, 0x29, 0xbb, 0xd7, 0xbe, 
  0xa0, 0x69, 0x99, 0xbe, 0x20, 0x05, 0x65, 0xbe, 0x00, 0x5a, 0x65, 0x3f, 
  0x04, 0x00, 0x00, 0x00, 0xdc, 0x1c, 0x96, 0xbb, 0x04, 0x00, 0x00, 0x00, 
  0x00, 0x00, 0x00, 0x00
};
const unsigned int RSSIMODEL_model_flt_bin_len = 100;
#endif//#if COMPONENT_ML_FLOAT32

#if COMPONENT_ML_INT16x16
unsigned char RSSIMODEL_model_fixed16_bin[] __ALIGNED(4) = {
  0x24, 0x00, 0x00, 0x00, 0x0a, 0x00, 0x00, 0x00, 0xa0, 0xfe, 0x1d, 0xfe, 
  0x58, 0x00, 0xf4, 0x00, 0x8c, 0xfe, 0x0a, 0x00, 0x00, 0x00, 0xd4, 0xfe, 
  0x2d, 0x01, 0x00, 0x00, 0x00, 0x00, 0xd4, 0xfe, 0x02, 0x00, 0x00, 0x00, 
  0x00, 0x00, 0x0a, 0x00, 0x00, 0x00, 0x5e, 0x01, 0x28, 0xff, 0x67, 0xff, 
  0x8d, 0xff, 0xcb, 0x01, 0x02, 0x00, 0x00, 0x00, 0xd4, 0xfe, 0x02, 0x00, 
  0x00, 0x00, 0x00, 0x00, 0x09, 0x00, 0x00, 0x00, 0x09, 0x00, 0x00, 0x00, 
  0x10, 0x00, 0x00, 0x00, 0x10, 0x00, 0x00, 0x00, 0x23, 0x00, 0x00, 0x00, 
  0x23, 0x00, 0x00, 0x00
};
const unsigned int RSSIMODEL_model_fixed16_bin_len = 88;
#endif//#if COMPONENT_ML_INT16x16

#if COMPONENT_ML_INT16x8 || COMPONENT_ML_INT8x8
unsigned char RSSIMODEL_model_fixed8_bin[] __ALIGNED(4) = {
  0x12, 0x00, 0x00, 0x00, 0x05, 0x00, 0x00, 0x00, 0xa8, 0x87, 0x16, 0x3d, 
  0xa3, 0x05, 0x00, 0x00, 0x00, 0xb5, 0x4b, 0x00, 0x00, 0xb5, 0x01, 0x00, 
  0x00, 0x00, 0x00, 0x05, 0x00, 0x00, 0x00, 0x58, 0xca, 0xda, 0xe3, 0x73, 
  0x01, 0x00, 0x00, 0x00, 0xb5, 0x01, 0x00, 0x00, 0x00, 0x00, 0x07, 0x00, 
  0x00, 0x00, 0x07, 0x00, 0x00, 0x00, 0x0e, 0x00, 0x00, 0x00, 0x0e, 0x00, 
  0x00, 0x00, 0x21, 0x00, 0x00, 0x00, 0x21, 0x00, 0x00, 0x00
};
const unsigned int RSSIMODEL_model_fixed8_bin_len = 70;
#endif//#if COMPONENT_ML_INT16x8 || COMPONENT_ML_INT8x8

#define RSSIMODEL_MODEL_NUM_OF_LAYERS 2 
#define RSSIMODEL_MODEL_NUM_OF_RESIDUAL_CONN 0 
#define RSSIMODEL_MODEL_INPUT_DATA_SIZE 1 
#define RSSIMODEL_MODEL_OUTPUT_DATA_SIZE 1 


#if COMPONENT_ML_FLOAT32
#define RSSIMODEL_MODEL_SIZE_OF_STATE_OUT 0 
#define RSSIMODEL_MODEL_SCRATCH_MEM_SIZE 24
#endif//#if COMPONENT_ML_FLOAT32

#if COMPONENT_ML_INT16x16 || COMPONENT_ML_INT16x8
#define RSSIMODEL_MODEL_SIZE_OF_STATE_OUT 0 
#define RSSIMODEL_MODEL_SCRATCH_MEM_SIZE 40
#endif//#if COMPONENT_ML_INT16x16 || COMPONENT_ML_INT16x8

#if COMPONENT_ML_INT8x8
#define RSSIMODEL_MODEL_SIZE_OF_STATE_OUT 0 
#define RSSIMODEL_MODEL_SCRATCH_MEM_SIZE 36
#endif//#if COMPONENT_ML_INT8x8
